79
79
79
79
79
79
79
79
79
79
79
79
79
79
79
79
79
79
79
79
79
79
79
79
79
79
79
79
79
79
79
79
79
79
79
79
79
79
79
78
78
78
79
7a
7c
7a
78
78
78
78
79
79
79
79
79
79
79
79
79
79
79
79
79
79
7a
7d
7c
7d
7c
7a
7c
7d
7d
79
76
74
75
75
76
78
7a
7a
79
79
79
79
79
79
79
79
79
7a
81
8f
91
96
9c
9f
93
8c
8a
7f
70
6a
68
6b
6f
72
77
79
79
79
79
79
79
79
77
7b
81
84
8c
9d
a3
aa
ae
a1
9b
91
92
88
78
6c
68
61
61
68
71
78
79
79
79
79
79
79
79
7c
87
93
9f
a5
a9
aa
a5
a3
9c
a3
af
a4
8f
7d
71
6f
66
63
6b
76
79
79
79
79
79
79
7c
83
91
99
97
9d
98
87
89
8c
88
87
88
87
82
77
6e
6c
65
5a
68
74
78
79
79
79
79
7a
82
89
9b
96
90
8b
81
82
80
8a
83
79
76
63
6b
71
71
77
73
59
63
73
78
79
79
79
79
7b
84
8a
90
8f
85
89
9b
91
89
8a
94
8e
7c
76
6d
7f
79
76
6d
66
60
70
78
79
79
79
7a
7c
84
92
86
79
71
85
94
86
7f
7f
8c
97
96
80
81
7b
75
6f
71
65
60
72
78
79
79
79
79
7c
7b
82
7d
5d
5e
5e
5d
57
4d
44
61
6d
7c
80
85
7d
74
6f
6f
65
68
75
79
79
79
79
79
78
70
64
51
39
33
2f
1d
19
0d
0b
2b
44
63
63
74
87
76
72
69
63
6f
7a
7a
79
79
79
79
75
69
46
22
13
1e
1e
1e
21
1c
24
33
3d
4f
57
68
85
78
72
62
58
77
82
7f
79
79
79
79
74
60
36
19
1b
31
41
56
6b
67
70
68
50
50
61
64
6e
71
70
60
61
80
8e
85
7c
79
79
79
75
66
44
44
57
61
71
82
8e
8d
9e
84
66
6a
61
6b
67
6f
6b
62
6e
88
96
88
79
79
78
79
7c
7b
79
7f
7c
7d
7f
81
7f
8a
9d
89
7e
7e
70
61
6b
5f
67
62
74
9c
a0
89
7b
79
79
79
85
91
95
9e
8f
7c
8a
8d
97
a7
a4
8b
7f
96
88
77
71
6f
83
86
91
aa
b0
90
7c
79
79
7a
8a
a1
a4
a0
94
91
9a
a7
ac
ae
a5
8b
8f
89
7e
82
82
85
8d
93
99
b8
b3
88
7a
79
79
77
87
a6
b3
a1
a5
99
98
a3
9e
ab
a5
91
7f
89
8f
8d
8b
86
90
99
b1
c1
a3
7f
7a
79
79
78
7e
9f
a2
9e
ab
a0
a1
a4
a5
a7
a5
8e
8a
8c
90
8a
82
87
91
a4
b2
ac
95
80
7a
79
79
79
80
9c
9d
9e
ae
a5
9f
99
a2
93
87
80
81
7f
7e
8c
95
92
9f
ad
b0
a0
87
7c
79
79
79
7a
80
8c
91
93
98
96
9c
91
8e
81
7f
78
71
7c
8c
97
9e
90
9c
a9
a9
95
82
7b
79
79
79
7a
7f
83
82
8b
93
9d
9c
8f
8c
83
70
66
63
71
80
94
9f
9e
9d
9e
92
86
7d
78
79
79
79
79
78
75
6f
6e
6f
76
7c
76
7e
76
66
5e
5f
68
74
8a
96
90
93
8d
84
80
7c
79
79
79
79
79
76
71
68
5e
59
5a
5c
58
62
6d
6f
75
70
72
79
7b
74
77
7e
7c
7c
81
7d
7a
79
79
79
79
78
75
73
72
6b
62
61
63
64
67
6b
6f
72
73
73
6f
6c
71
73
76
76
78
79
7a
79
79
79
79
79
79
79
78
78
78
77
77
76
77
76
76
76
76
76
76
77
77
78
79
79
79
79
79
79
79
79
79
79
79
79
79
79
79
79
79
79
79
79
79
79
79
79
79
79
79
79
79
79
79
79
79
79
