79
79
79
79
79
79
79
79
79
79
79
79
79
79
79
79
79
79
79
79
79
79
79
79
79
79
79
79
79
79
79
79
79
79
79
79
79
79
79
79
79
79
79
79
79
79
79
79
79
79
79
79
79
79
79
79
79
79
79
79
79
79
79
79
79
79
78
76
75
74
74
75
77
7a
7a
7a
77
78
78
78
78
79
79
79
79
79
79
79
79
78
78
77
77
74
74
71
6f
6d
70
78
7b
83
89
87
83
82
7e
76
75
79
79
79
79
79
79
79
78
73
6f
6c
63
61
68
6e
67
5e
6c
83
88
8a
8a
7d
72
85
8b
8f
88
7d
7a
79
79
79
79
78
73
6c
64
65
67
78
80
80
74
69
65
69
7b
84
83
7d
86
8a
9c
a5
9a
88
7d
79
79
79
79
75
6d
68
66
73
7f
85
8a
84
79
76
82
76
75
80
89
8c
88
84
98
b4
bc
9c
85
7b
79
79
78
72
61
5d
67
7e
8e
87
8e
90
84
75
82
6d
7d
85
88
8c
8a
89
9a
bf
d4
b8
89
7b
79
79
78
70
58
59
65
75
8f
83
87
8f
7b
68
60
54
5f
6e
74
7e
89
8f
9b
ce
ee
c6
8c
7a
79
79
78
6f
5f
5f
72
87
99
8c
95
aa
98
7b
5c
46
45
56
63
6f
7e
97
a9
d5
ff
d4
8d
7b
79
79
78
72
6b
72
84
97
a3
a7
a3
ad
b0
a0
83
68
57
47
4b
52
63
76
8a
b6
e4
d0
8e
7a
79
78
77
72
74
7e
99
99
9a
98
96
a2
b5
bf
94
72
5d
54
50
3d
2d
34
3d
65
8e
a2
83
79
79
78
78
76
7a
84
9b
94
8d
80
95
ae
bf
b4
7e
60
45
45
4b
44
33
1b
15
2d
4e
7b
7c
79
79
79
79
78
7d
86
8a
91
89
8a
a4
ae
b3
9e
74
50
39
50
5c
63
5d
46
3c
39
51
74
79
79
79
79
79
78
7b
76
77
7c
8d
9d
a9
97
91
83
6d
56
48
4c
65
63
6f
66
63
59
62
72
78
79
79
79
79
77
75
64
62
63
76
92
8f
8f
8b
69
49
49
4d
55
7b
6e
6b
73
71
71
6f
73
77
78
79
79
79
78
74
65
5c
43
45
53
60
68
6c
5c
48
51
53
65
75
7e
7b
76
7f
82
77
74
77
78
79
79
78
7a
7a
87
91
59
42
40
3c
46
41
44
4f
58
6b
7a
88
8b
87
7f
78
88
80
73
78
79
79
79
78
79
86
96
b7
92
74
5e
53
57
63
6c
72
6a
75
80
79
88
89
82
82
8c
87
75
78
79
79
79
78
77
85
99
ad
9b
a3
8a
7a
80
84
84
7b
7a
76
77
7d
83
85
87
8c
8f
86
78
78
79
79
79
78
77
7d
91
97
89
a2
9c
89
91
80
7d
71
76
81
87
8a
85
7f
91
a0
8e
80
7b
79
79
79
79
78
78
7e
7b
85
8b
94
96
89
92
8a
80
7c
80
82
85
7e
7d
93
a0
9a
89
7d
7d
79
79
79
79
78
78
7f
73
70
75
81
8a
80
8a
94
99
8d
88
8d
83
89
90
91
89
87
83
7d
7c
7a
79
79
79
79
79
7f
7e
75
73
82
8a
97
93
95
8b
89
82
89
80
77
81
83
7c
7c
7e
7c
7a
79
79
79
79
79
79
78
78
76
7c
81
96
93
94
9c
a4
9c
94
85
83
83
7d
7b
78
7e
7d
7b
78
79
79
79
79
79
7a
7a
77
75
76
76
80
87
90
92
93
88
89
86
84
7e
7c
7a
7d
80
7d
7b
79
79
79
79
79
79
79
79
78
78
76
75
76
78
7c
7b
77
75
79
77
77
75
78
7a
7a
7a
79
79
79
79
79
79
79
79
79
79
79
79
79
79
79
79
7a
79
79
78
78
78
78
78
79
79
79
79
79
79
79
79
79
