79
79
79
79
79
79
79
79
79
79
79
79
79
79
79
79
79
79
79
79
79
79
79
79
79
79
79
79
79
79
79
79
79
79
79
79
79
79
79
79
79
79
79
79
79
79
79
79
79
79
79
79
79
79
79
79
79
79
79
79
79
79
79
79
79
78
77
77
76
75
75
74
74
75
77
77
78
78
78
79
79
79
79
79
79
79
79
79
79
79
79
78
77
76
73
71
6f
6c
68
69
69
6a
70
6f
72
76
79
7a
79
79
79
79
79
79
79
79
79
78
76
75
77
79
78
7a
86
8a
96
94
87
79
6f
6b
73
69
6a
6e
77
7a
7a
79
79
79
79
78
77
74
72
73
73
76
72
87
9a
99
9f
99
96
97
80
84
82
74
6a
69
73
7d
79
79
79
79
79
77
74
72
6e
70
76
76
73
83
8d
83
85
a0
8f
83
73
8a
87
7d
7c
81
7b
7f
79
79
79
79
78
77
75
75
76
7b
81
82
84
73
74
70
62
84
7f
6c
81
75
7d
88
85
97
8e
7b
77
79
79
79
78
77
79
80
89
8d
86
95
88
79
8e
86
65
69
81
76
82
8a
80
8c
95
9e
95
7d
7a
79
79
79
77
77
7c
88
92
93
96
9a
92
8d
84
7a
57
43
60
76
7f
8a
89
8d
98
9c
87
78
7c
78
79
79
78
76
83
88
96
9f
9b
a5
a4
9b
93
8a
71
51
52
65
82
86
7f
8b
9a
9b
80
73
7a
79
79
79
78
77
80
8d
9b
ab
a8
a9
98
90
9b
b0
af
75
5f
63
6e
77
87
92
a9
a9
95
81
7f
79
79
79
78
7a
7b
89
8c
94
8e
8f
76
70
96
c6
ad
8c
7b
72
6a
88
9a
a6
a6
a3
95
81
7c
79
79
79
79
79
75
78
75
72
6e
72
62
7e
a2
b6
93
a0
88
6d
75
83
8c
7f
83
84
7e
79
79
79
79
79
79
78
71
6c
5d
4b
4d
51
68
8f
9c
b4
a2
95
7c
7a
6f
6b
5b
5e
5f
64
6d
77
78
79
79
79
79
77
70
62
54
4c
58
69
6f
78
a1
bb
ab
88
73
67
60
55
46
4b
58
5f
69
76
78
79
79
79
78
77
6d
5f
5c
69
80
86
7e
84
b3
9c
80
78
7a
66
4e
48
48
48
56
68
6c
72
76
79
79
79
78
76
6b
5e
62
7f
95
a2
8f
a6
b7
95
74
6c
7f
65
4e
5f
67
61
63
73
74
6e
77
79
79
79
78
72
65
64
72
82
91
a2
a6
a7
9a
7c
66
6f
60
65
68
6f
75
69
74
79
73
70
78
79
79
79
78
6f
64
72
85
89
8d
98
99
78
7e
69
63
6f
69
73
7a
7c
85
78
84
82
74
73
78
79
79
79
78
6f
67
73
89
9e
88
7a
82
65
7a
77
69
77
63
6d
75
7e
88
84
86
7f
72
75
78
79
79
79
78
71
6b
71
8a
97
84
85
7e
76
78
86
78
74
64
6b
72
7c
87
7f
81
75
70
76
79
79
79
79
78
74
6b
64
74
85
7f
7e
81
8e
97
a1
9c
88
76
79
7c
79
7f
82
77
74
74
78
79
79
79
79
79
76
6b
53
51
62
81
83
81
8a
9c
b0
a9
a4
a3
8f
8c
8b
88
7c
78
79
76
78
79
79
79
79
79
77
6d
5e
54
59
6f
75
7d
8e
8b
87
8c
9e
a5
8b
92
94
81
77
75
77
77
78
79
79
79
79
79
79
73
6e
6b
66
5f
5e
66
67
63
69
78
86
86
84
81
7d
79
77
77
79
79
79
79
79
79
79
79
79
78
77
76
76
76
74
71
71
6f
6f
70
6f
72
74
76
76
77
78
79
79
79
79
79
79
79
79
79
79
79
79
79
79
79
79
79
79
79
78
78
78
79
79
79
79
79
79
79
79
79
79
79
79
