79
79
79
79
79
79
79
79
79
79
79
79
79
79
79
79
79
79
79
79
79
79
79
79
79
79
79
79
79
79
79
79
79
79
79
79
79
79
79
79
79
79
7a
7a
79
79
79
79
79
79
79
79
79
79
79
79
79
79
79
79
79
79
79
79
78
77
77
77
79
7e
7f
83
7e
79
78
78
78
78
78
79
79
79
79
79
79
79
79
79
79
79
79
78
75
73
6f
6c
71
76
77
7c
7b
71
6e
70
70
73
75
76
77
79
78
79
79
79
79
79
79
7a
79
75
72
6f
70
70
7e
8f
90
8a
84
7b
77
86
8c
8c
81
7a
73
76
79
79
79
79
79
79
79
7c
76
6d
64
61
69
71
7e
8f
8b
89
71
6b
77
83
94
9b
92
85
7a
74
79
79
79
79
79
79
79
76
6f
65
5a
51
5c
6a
6a
6b
67
5a
56
57
6b
77
8a
8c
85
7d
75
73
78
79
79
79
79
79
78
72
68
60
52
50
53
58
61
60
5d
4e
53
5e
64
78
7f
7a
75
6c
67
6f
78
79
79
79
79
79
77
72
68
61
51
4a
4e
55
63
6f
73
7a
69
7a
71
70
69
63
5c
55
5c
6c
78
79
79
79
79
78
76
6e
69
66
5a
50
57
63
6d
83
9e
ad
8b
7c
6e
61
55
4f
4c
51
5f
6f
78
79
79
79
79
77
76
6e
67
65
60
57
62
6b
74
96
c4
d1
9a
7a
63
59
4e
4f
54
5a
65
72
78
79
79
79
79
78
78
73
69
64
61
59
5b
5a
6c
9d
de
df
9b
73
68
5b
58
5f
65
6b
6f
75
78
79
79
79
79
79
79
74
70
6b
65
5e
4c
3f
66
a3
f6
d5
8d
7a
68
5b
63
6a
6e
72
75
77
78
79
79
79
79
79
79
75
71
6d
6b
59
36
2b
5d
af
ec
c5
8a
74
55
59
64
6a
6e
70
73
76
78
79
79
79
79
79
7a
74
6f
6a
66
51
30
2c
6c
ba
e0
bc
80
4f
43
50
5f
67
6d
70
74
76
79
79
79
79
79
79
78
71
69
66
62
4d
3d
53
7f
c0
df
9e
6d
38
40
4c
5a
64
6a
6e
73
76
78
79
79
79
79
79
78
6e
60
5a
57
56
5f
66
76
bf
d6
86
57
30
3e
4e
5b
64
69
6c
70
74
77
79
79
79
79
79
76
64
53
4f
56
62
77
6d
8b
bb
b9
79
4c
3a
49
56
5f
66
6b
6d
6f
73
78
79
79
79
79
78
73
5e
47
4a
60
73
6d
75
89
9d
97
6c
56
5a
62
67
6c
6c
6b
6d
73
77
79
79
79
79
79
78
71
5b
53
5d
6c
78
71
78
7b
91
7e
72
7b
74
79
7b
77
76
71
72
77
7a
79
79
79
79
78
77
73
67
6e
76
82
86
86
81
7b
77
77
75
8d
92
90
87
7e
75
71
73
75
79
79
79
79
79
78
78
7b
89
8e
8d
92
8b
88
6a
61
5e
73
7a
89
90
92
86
7f
78
6c
70
77
78
79
79
79
79
78
78
80
9e
a0
95
8e
85
70
52
43
4a
6d
80
8f
98
94
83
7b
72
6e
74
77
79
79
79
79
79
79
78
7c
94
9a
8d
7f
73
65
5a
60
5c
68
84
8d
92
81
79
75
72
73
75
78
79
79
79
79
79
79
78
77
7f
80
73
68
61
54
4f
51
4c
56
62
61
70
76
77
77
78
77
78
79
79
79
79
79
79
79
79
77
76
74
71
6f
68
5c
5d
61
5b
5c
5f
66
6f
75
76
78
78
79
79
79
79
79
79
79
79
79
79
79
79
79
78
77
77
75
75
74
71
72
74
76
78
77
78
79
79
79
79
79
79
79
79
79
79
79
79
79
79
79
79
79
79
79
79
79
79
79
79
79
79
78
79
79
79
79
79
79
79
79
79
