79
79
79
79
79
79
79
79
79
79
79
79
79
79
79
79
79
79
79
79
79
79
79
79
79
79
79
79
79
79
79
79
79
79
79
79
79
79
79
79
78
79
79
79
79
79
79
79
79
79
79
79
79
79
79
79
79
79
79
79
79
79
79
79
79
79
78
77
77
78
77
77
78
78
78
79
79
79
79
79
79
79
79
79
79
79
79
79
79
79
79
78
77
77
75
72
72
73
72
72
74
74
75
76
77
78
78
79
79
79
79
79
79
79
79
79
79
78
78
76
73
6f
6a
66
61
5f
5e
5e
5f
63
67
6c
6f
73
75
77
78
79
79
79
79
79
79
79
78
7a
7a
78
77
70
65
5b
53
4a
43
41
44
46
4b
50
57
62
6a
70
75
78
79
79
79
79
7a
7d
7b
7f
85
87
8f
8f
8d
8a
7b
62
5d
63
63
64
5d
5e
60
6a
6a
6a
70
75
78
79
79
79
7c
83
7f
86
91
96
9c
a3
a7
a5
99
85
78
80
8c
92
94
88
86
7b
79
71
6e
73
78
79
79
7a
80
8b
8f
92
96
a1
9d
97
97
a5
a3
93
9b
a1
a4
a5
a7
97
90
80
81
76
6a
70
77
78
79
7b
80
90
9a
97
8f
88
83
83
7f
92
9a
96
a9
b4
bb
b6
a2
a0
90
90
84
72
6c
72
78
7a
79
7b
84
90
9b
9a
87
80
71
7c
82
7d
7c
97
ae
c8
d6
b9
a9
a5
a1
a1
8c
6d
6c
74
78
79
79
7d
8b
94
a0
93
84
84
75
84
89
83
74
7f
9a
bb
c4
b5
ac
97
97
99
88
6e
6f
75
78
79
79
7d
89
95
a0
93
81
8b
8f
78
6a
5a
33
2b
5c
9b
b6
af
a2
82
86
83
7a
71
71
7a
7a
79
79
7b
83
8d
92
88
7d
7e
7b
68
54
2b
00
00
40
7d
99
93
93
88
8c
81
7a
7a
79
7b
79
79
79
7a
7f
82
81
83
76
72
66
54
3e
19
02
14
4c
75
86
a0
b7
bb
a4
93
94
8d
7e
7a
79
79
79
79
7b
7c
7a
72
72
69
57
4e
41
28
1c
39
5b
7f
83
ba
c4
b6
b2
a9
a2
8a
7b
77
79
79
79
79
79
78
77
6b
6d
6b
5a
55
40
31
46
5a
68
88
8c
a5
9d
a5
9c
99
85
78
77
76
79
79
79
79
79
77
77
6d
5f
53
50
4f
3f
49
61
7e
86
82
77
7c
84
7d
7c
78
74
71
76
78
79
79
79
79
79
78
72
66
52
4b
45
40
40
58
6a
89
85
74
63
66
66
68
64
5e
62
63
6c
77
79
79
79
7a
79
76
70
61
50
47
49
46
4a
5a
74
83
88
6a
52
50
4f
57
4b
48
55
61
70
77
79
79
79
79
78
74
6c
61
50
48
4c
4b
54
5c
78
7c
7c
63
54
49
3e
46
3e
46
54
65
74
78
79
79
79
79
77
73
6c
66
5d
57
58
55
5c
65
6c
6b
69
66
62
51
48
45
44
4c
5a
6a
75
78
79
79
79
79
77
74
72
76
75
7b
73
69
6e
64
61
5e
6b
73
69
5d
52
50
4b
54
63
6d
76
78
79
79
79
79
78
76
7d
87
90
97
7f
7b
79
6b
67
6a
77
7d
75
6f
63
5b
56
5b
68
6d
75
78
79
79
79
79
79
7a
84
93
9d
a0
9a
91
94
8b
8a
8f
8d
8c
88
83
74
6b
67
68
6c
6e
75
77
79
79
79
79
79
7b
82
86
8b
94
a1
a5
a0
a7
a5
a3
a5
aa
9d
96
8a
79
6e
71
74
75
79
79
79
79
79
79
79
79
79
78
7a
7e
83
8a
8c
8f
8c
99
9d
a2
9d
96
8e
81
76
78
7a
79
79
79
79
79
79
79
79
79
79
79
79
79
7a
7b
7b
7b
7c
81
82
81
82
82
83
7f
7a
79
7a
79
79
79
79
79
