79
79
79
79
79
79
79
79
79
79
79
79
79
78
79
79
79
79
79
79
79
79
79
79
79
79
79
79
79
79
79
79
79
79
78
76
76
78
76
75
72
75
77
76
76
77
78
78
78
78
78
79
79
79
79
79
79
79
79
79
79
79
78
74
73
73
6e
6a
65
68
6c
6b
6b
70
73
76
77
78
77
78
79
79
79
79
79
79
79
79
79
79
77
73
6e
6a
66
5f
55
52
57
57
5c
65
6b
74
78
78
78
7a
79
79
79
79
79
79
79
79
7a
7a
76
72
6c
67
5c
57
53
54
4f
4e
59
65
6d
7b
81
82
84
84
7f
7a
79
79
79
79
79
79
7a
7c
7a
78
77
76
69
63
5c
52
62
6a
77
78
83
88
85
8b
94
9a
88
7b
78
79
79
79
79
78
7b
81
81
84
7a
78
69
5b
52
48
45
46
4b
59
5c
71
74
86
a1
aa
90
7c
7a
79
79
79
79
78
7d
84
7f
81
78
6d
5f
51
3c
3b
2c
2a
30
48
50
60
65
79
98
a0
88
79
7a
79
79
79
78
78
7a
7f
7a
74
6a
6f
5d
5b
4f
4c
27
29
3b
52
67
69
6f
75
84
86
7c
75
76
79
79
78
78
73
71
74
6b
6c
6e
76
66
69
6d
5b
1f
30
5f
70
75
77
76
77
74
6a
60
69
74
78
79
78
76
71
70
6d
69
72
7e
8c
82
87
8f
57
16
4c
79
87
73
7e
6d
6b
66
55
5b
68
74
79
79
78
73
71
6c
6d
76
82
94
a4
af
ad
a7
42
22
72
a6
8f
72
71
67
68
5e
58
61
6e
78
79
79
78
74
70
69
74
88
9c
ad
ad
c4
d6
c2
62
43
8a
b0
8f
7b
7c
78
7c
73
68
6f
76
78
79
79
78
76
72
74
8b
a5
b3
b0
b1
c5
dc
ae
6b
6a
9b
a5
a2
92
8b
91
8e
84
76
71
77
78
78
79
78
78
78
89
a1
ad
b8
ae
a7
b1
b7
99
6c
72
92
b5
be
9f
a3
96
86
82
78
72
74
77
79
79
79
79
7b
87
99
a2
af
b3
ac
9c
9b
86
68
7d
a6
c6
bb
9e
9b
83
7c
7e
74
68
6f
7a
79
79
79
78
75
74
83
93
a9
b4
a2
7c
76
7a
82
a9
cf
c3
ad
9e
8d
89
7c
6f
69
68
6f
76
79
79
79
79
6e
6d
73
7d
92
a0
8f
76
70
84
a5
ca
c5
b1
93
8b
75
76
73
64
67
6a
70
77
78
79
79
79
6e
69
69
65
6f
78
75
5d
65
85
9f
a7
a5
91
66
6a
63
69
68
5a
65
6c
71
78
79
79
79
78
73
69
67
5c
4f
4a
43
3c
49
50
69
82
80
6e
5f
60
5c
5f
67
58
64
6e
75
79
79
79
79
78
73
6a
60
54
43
37
35
38
49
4d
4a
61
6e
72
6d
65
5f
64
69
63
68
71
75
79
79
79
79
79
75
70
68
55
4a
4e
4b
4d
5c
5c
56
65
76
6e
70
6f
76
79
76
6e
71
74
75
79
79
79
79
79
76
73
6e
65
5e
5d
5b
63
68
65
68
67
73
71
7b
84
90
88
87
76
72
76
77
79
79
79
79
79
78
76
72
6f
6e
6d
6f
72
75
6b
6c
73
75
80
85
96
93
90
88
79
76
76
79
79
79
79
79
79
79
78
75
72
72
72
73
74
75
65
65
6a
6c
75
73
7c
82
80
7d
7a
79
78
79
79
79
79
79
79
79
78
75
71
6d
63
61
61
55
4d
54
52
51
49
4a
56
5d
67
6f
75
78
78
79
79
79
79
79
79
79
79
78
75
72
6d
66
63
5e
59
59
54
58
58
5d
62
68
70
74
77
79
79
79
79
79
79
79
79
79
79
79
79
78
77
78
77
78
77
77
74
77
77
77
77
78
79
79
79
79
79
79
79
79
