79
79
79
79
79
79
79
79
79
79
79
79
79
79
79
79
79
79
79
79
79
79
79
79
79
79
79
79
79
79
79
79
79
79
79
79
79
79
79
79
79
79
79
79
79
79
79
79
79
79
79
79
79
79
79
79
79
79
79
79
79
79
79
79
78
78
78
79
7a
78
78
77
77
77
77
78
78
78
78
79
79
79
79
79
79
79
79
79
79
7c
7c
7d
7d
7b
7f
8c
94
93
9e
9b
93
8e
88
82
7f
75
73
76
78
79
79
79
79
79
79
7a
7c
83
89
8f
98
9a
a2
a9
a8
ab
a7
a0
9b
8b
8e
81
71
68
6a
6a
75
79
79
79
79
79
79
7c
83
90
9a
9e
9a
96
95
92
8a
88
85
90
92
7b
7d
7b
70
61
5e
5d
6f
77
79
79
79
79
79
80
8b
96
9d
93
90
95
95
8b
88
95
93
93
9c
8d
8e
7c
80
75
5e
5c
6b
75
78
79
79
79
79
81
96
a4
99
87
83
84
81
80
88
8f
9f
9d
8d
91
84
8b
89
79
68
5b
64
73
78
79
79
79
78
81
9a
9c
92
84
7d
7d
81
7a
7d
8a
a0
a1
91
8f
94
93
97
8c
80
57
5e
72
78
79
79
79
7a
83
96
8c
84
7c
6f
6b
58
3f
44
6d
9f
ac
9d
95
93
96
a4
99
86
60
63
74
78
79
79
79
7a
84
87
79
68
5b
4a
3a
2d
23
38
76
a1
a6
a3
99
9d
a4
aa
91
78
69
6b
76
79
79
79
79
79
81
7e
67
4f
38
32
36
42
4f
69
90
9a
99
8c
96
97
9a
94
71
69
67
6f
78
79
79
79
79
78
79
74
61
4d
3f
42
5a
72
6f
81
93
ae
97
8b
88
91
7d
6b
52
59
66
71
79
79
79
79
79
78
79
70
61
50
48
56
64
61
66
8b
a3
9c
78
83
88
92
73
53
51
54
66
72
78
79
79
79
79
79
7b
77
63
50
4c
53
62
5e
65
90
90
88
7b
79
82
82
79
6a
6d
62
6a
73
77
78
79
79
7a
7a
7d
80
70
61
53
4a
4d
5a
72
88
93
8b
7e
6d
73
7a
8d
97
8d
84
7b
78
76
78
79
79
7a
7d
84
8c
7c
67
58
48
4d
51
65
7c
8b
75
5f
5a
78
8e
97
9a
9e
97
8a
7e
74
78
79
79
79
7e
8d
94
81
6e
65
50
38
2e
3b
49
50
4a
53
79
96
90
97
8e
a1
a4
90
71
71
78
79
79
79
7f
99
9d
99
86
6b
5d
44
35
36
34
3d
4a
78
a4
a4
a4
94
91
a8
a5
86
6b
73
78
79
79
79
7f
a1
a8
a9
95
85
77
6e
5d
4a
45
53
69
84
9f
ae
a8
95
8f
a4
8f
7b
6d
75
78
79
79
79
7f
9e
aa
a6
a2
97
94
92
74
61
52
64
76
7d
90
9e
9e
94
9d
8f
7b
72
70
77
79
79
79
79
7f
94
a3
9b
9b
93
8c
7c
73
63
62
6a
71
7c
8c
8c
98
9e
8c
79
6f
6a
70
77
79
79
79
79
7e
8a
96
96
92
87
77
7a
7f
7d
70
6d
6d
77
7f
88
89
8c
7e
70
72
70
73
78
79
79
79
79
7b
84
92
9d
a2
99
81
82
82
8b
77
7c
71
74
71
84
8c
77
71
6c
6e
73
77
78
79
79
79
79
7a
7f
87
91
a2
a8
a1
9e
a7
a7
9e
a3
9c
8b
8b
82
6d
6a
6d
71
74
76
78
79
79
79
79
79
79
79
7a
7f
86
8f
9d
a4
ab
ad
af
a6
98
88
82
79
74
78
74
73
77
79
79
79
79
79
79
79
79
79
79
7a
7a
7b
7a
79
79
79
78
77
74
76
79
78
78
78
77
78
79
79
79
79
79
79
79
79
79
79
79
79
79
79
79
79
79
79
79
79
78
79
78
78
79
79
79
79
79
79
79
79
79
79
