79
79
79
79
79
79
79
79
79
79
79
79
79
79
79
79
79
79
79
79
79
79
79
79
79
79
79
79
79
79
79
79
79
79
79
79
79
79
79
79
78
79
79
78
78
78
79
79
79
79
79
79
79
79
79
79
79
79
79
79
79
79
79
79
79
79
78
77
77
76
76
76
75
76
77
78
78
78
79
79
79
79
79
79
79
79
79
79
79
79
79
79
78
77
76
74
72
70
6d
6c
6d
71
74
74
75
77
78
79
79
79
79
79
79
79
79
79
79
79
78
77
75
71
6e
68
60
5c
56
52
52
5a
62
66
6b
6e
72
76
78
79
79
79
79
79
79
79
78
77
73
6d
69
64
69
70
70
74
61
51
3c
3e
43
4b
54
5a
5e
67
70
76
79
79
79
79
79
78
75
6c
63
58
58
61
6b
7b
85
9d
a0
96
97
90
86
71
69
5e
54
57
64
72
77
79
79
79
78
75
6c
5e
56
4e
5a
6c
77
85
a2
b9
cd
d0
c8
ab
96
85
7a
6f
57
53
5e
6e
76
79
79
78
76
6e
65
5d
5d
57
70
6c
73
73
72
90
ab
a8
99
82
81
74
6f
7a
62
58
60
6e
77
79
79
78
75
6d
5e
65
74
74
7d
77
88
83
81
81
97
98
7a
76
7f
73
76
6c
67
5c
62
6e
76
79
79
78
73
6e
65
75
89
8c
96
8d
9b
9d
8c
66
74
6f
71
80
80
79
81
7a
74
6a
66
6f
76
79
79
77
71
6f
76
90
9b
9c
af
9a
a2
9f
74
65
78
89
92
a8
9e
a0
b2
a3
91
77
6c
72
77
79
79
77
72
74
89
a0
a4
9e
98
a6
a1
83
58
78
9f
a1
a8
b3
b1
b6
bc
ae
9b
82
6d
73
77
79
79
78
73
78
97
a3
9d
96
90
8e
8c
6a
5c
86
9f
9f
be
b5
ac
ad
af
9e
84
6b
65
71
77
79
79
78
75
7c
90
8f
97
8c
87
7f
78
6e
69
77
7a
94
b5
af
96
88
93
80
67
58
61
72
78
79
79
79
77
7a
85
81
80
86
84
71
74
76
72
62
5f
8b
ae
ab
86
75
78
62
52
53
61
72
77
79
79
79
78
78
7f
79
6e
7b
8d
79
87
8b
76
59
61
83
9f
97
7d
66
61
4e
54
52
61
72
77
79
79
79
77
74
6f
6b
68
7e
86
82
8a
8b
7f
64
6d
98
85
7d
6c
62
60
54
51
53
62
74
78
79
79
79
77
71
6a
62
65
69
6f
78
85
7d
64
61
86
86
6a
66
66
6d
6b
5b
56
57
66
74
79
79
79
79
77
71
6b
64
5d
5b
54
4e
50
4c
4e
5e
67
63
67
5e
65
71
70
5c
5d
62
6f
77
79
79
79
79
78
72
6e
6b
5b
4b
4a
3d
33
2f
37
5d
59
62
65
5f
5e
6a
69
61
66
6c
78
7b
79
79
79
79
78
74
70
6c
60
53
52
4f
48
41
4c
59
58
5c
5f
57
58
5f
68
70
71
77
7d
79
78
79
79
79
78
76
72
69
63
59
62
64
66
64
6c
62
69
5b
5d
58
58
57
6e
7c
82
83
7e
7a
79
79
79
79
78
78
72
6c
68
67
74
6f
76
6d
6e
69
65
5a
5c
5f
65
73
83
91
91
88
7e
79
79
79
79
79
79
78
78
78
78
80
82
7b
7a
6f
6d
65
62
6d
71
81
8a
95
a3
9e
91
87
7a
78
79
79
79
79
79
78
7a
82
85
8b
93
90
91
8a
90
90
95
8a
99
a0
a5
ac
ac
9c
86
7e
79
79
79
79
79
79
79
79
7b
7e
83
83
89
8e
91
92
9d
9d
a2
90
8d
8c
8e
8d
8d
83
7b
79
79
79
79
79
79
79
79
79
79
79
79
7a
7a
79
79
79
7a
77
79
77
75
74
74
76
7a
7a
7a
79
79
79
79
79
