79
79
79
79
79
79
79
79
79
79
79
79
79
7a
79
79
79
79
79
79
79
79
79
79
79
79
79
79
79
79
79
79
79
79
7a
7c
7c
7b
7c
7e
82
7e
7a
7b
7b
7b
7b
7c
7b
7b
7a
79
79
79
79
79
79
79
79
79
79
79
7b
80
82
82
8a
90
97
95
92
8f
91
90
8d
8a
86
84
82
7d
79
78
79
79
79
79
79
79
79
7a
7d
82
84
86
8c
8f
8e
91
93
91
91
9a
a3
a3
9d
99
92
8b
84
79
7a
79
79
79
79
79
79
78
79
7e
81
7b
7b
74
71
74
73
75
82
95
a0
a7
a9
a7
9e
91
82
7b
79
79
79
79
79
78
79
72
74
77
7a
73
71
5d
62
5f
6c
69
6e
7d
90
9a
97
93
8d
8c
81
79
79
79
79
79
79
77
78
72
6e
74
73
6a
5f
5e
65
5d
5e
65
61
64
68
71
73
72
73
74
75
76
77
79
79
79
79
76
76
70
69
71
70
65
5d
61
62
5b
5e
5f
52
54
4a
4d
55
56
55
5f
6f
72
77
79
79
79
79
76
75
6d
66
6d
6e
67
5f
62
62
58
52
47
40
37
28
2f
40
48
47
52
63
6e
75
79
79
79
79
76
74
6a
69
73
75
69
62
66
64
58
58
43
2e
1e
1d
2b
3e
4a
49
58
60
67
73
79
79
79
78
75
73
6c
6f
7b
7d
6e
71
70
67
6b
56
36
2b
2b
30
3a
4c
58
5d
6b
66
65
73
78
79
79
79
75
73
75
78
88
82
82
80
7d
86
7f
52
2f
3e
47
52
58
64
76
82
8e
79
6c
73
79
79
79
79
76
71
77
89
91
8b
8d
84
96
93
80
51
4d
64
68
65
5e
6d
8a
a0
ac
8f
73
72
79
79
79
79
76
70
7e
96
8f
8b
8e
94
95
90
72
61
7a
7f
69
62
6c
71
93
ad
bb
99
72
72
78
79
79
79
77
6b
7e
94
90
92
97
9e
a7
8f
6f
78
8a
89
61
5f
6b
78
92
ac
ae
90
74
71
79
79
79
79
74
65
78
93
98
99
9a
af
ad
90
84
94
8c
78
67
69
75
87
91
93
98
87
75
70
78
79
79
79
71
62
74
92
a4
9d
a3
b8
b8
86
86
94
89
6e
66
7f
87
83
84
82
85
7f
71
70
77
79
79
79
70
5e
69
82
9f
a1
a3
be
b7
90
87
8b
7d
6e
82
91
8e
83
83
84
7b
74
70
73
78
79
79
79
70
5f
58
72
98
99
9c
b1
b6
b4
95
81
84
91
9b
98
87
85
88
81
77
6f
73
77
78
79
79
79
71
62
56
66
84
8d
9c
b2
cc
c3
99
94
96
9a
96
90
90
8e
86
79
6e
6d
71
76
79
79
79
79
74
66
57
5a
71
7c
96
b0
b9
c5
b8
bf
aa
9a
90
95
8b
87
75
6a
6e
70
75
78
79
79
79
79
76
6a
5e
51
5f
71
81
97
ab
c1
ca
c5
ab
9f
9d
91
81
73
6c
70
72
75
77
79
79
79
79
79
78
72
68
5a
53
54
5e
6c
74
88
8c
82
86
82
79
6e
6a
6d
70
6f
73
76
78
79
79
79
79
79
79
77
74
6d
61
57
4e
45
47
53
5c
63
63
60
61
67
6b
70
70
73
76
77
78
79
79
79
79
79
79
79
78
76
73
6d
66
60
58
58
55
59
5c
62
68
6c
6f
72
73
76
78
79
79
79
79
79
79
79
79
79
79
78
78
76
74
73
73
72
70
6f
70
72
73
74
76
77
78
78
79
79
79
79
79
79
79
79
79
79
79
79
79
78
78
78
78
78
76
76
77
78
78
78
78
78
79
79
79
79
79
79
79
79
79
79
79
79
79
79
79
79
79
79
79
79
79
79
79
79
79
79
79
79
79
79
79
79
79
79
79
