79
79
79
79
79
79
79
79
79
79
79
79
79
79
79
79
79
79
79
79
79
79
79
79
79
79
79
79
79
79
79
79
79
79
79
79
79
79
79
7a
7b
7a
79
79
7a
7a
79
79
79
79
79
79
79
79
79
79
79
79
79
79
79
79
78
78
78
78
78
77
77
76
73
72
73
74
75
76
77
78
78
79
79
79
79
79
79
79
79
79
79
77
76
76
77
75
76
77
73
75
71
6f
6f
6b
65
66
6d
70
72
76
78
79
79
79
79
79
79
79
78
75
74
74
75
78
77
78
72
75
71
75
6e
71
6e
6b
6c
6e
6f
6f
71
77
79
79
79
79
79
79
78
73
72
70
71
73
79
7c
7e
90
97
95
92
9a
92
81
75
78
75
6a
6b
73
77
79
79
79
79
79
77
74
71
6f
6f
6b
74
7a
81
91
91
8d
96
9b
9b
89
82
8d
8b
72
62
6b
73
78
79
79
79
78
75
73
71
6d
68
72
79
7f
80
88
89
8c
94
9e
99
8c
80
85
8d
81
67
67
72
79
79
79
79
78
72
6f
6f
6b
6e
79
7b
7b
83
81
8f
9a
aa
a6
9b
8d
88
84
93
96
73
68
74
79
79
79
79
78
72
6e
6c
6b
6f
7a
82
76
80
8e
86
82
96
a4
a2
9a
8b
81
8e
a4
83
69
74
79
79
79
7a
76
72
6f
6b
6d
73
7b
76
7c
80
81
71
64
6e
90
9b
92
91
8b
99
ab
8b
6b
73
79
79
79
78
76
6d
6c
70
76
78
76
79
7b
74
6f
4c
32
38
65
7b
8a
90
98
a2
ad
95
70
76
79
79
79
78
75
6c
72
7f
7f
7b
7d
80
84
82
5f
29
13
21
53
72
7f
80
94
ae
b3
9f
77
77
79
79
79
79
75
71
7b
8e
92
8a
8b
8e
8d
7d
41
19
0c
20
4d
6c
6f
6b
89
aa
b1
9e
7b
78
79
79
79
79
74
71
8b
94
a0
97
99
93
91
70
36
11
0d
1c
54
6c
6b
74
8c
9e
ab
9a
7a
79
79
79
79
79
73
77
97
94
a0
9c
a0
a4
89
58
1f
09
13
32
5b
73
77
84
8b
9c
a4
90
79
78
79
79
79
79
73
79
9d
9d
99
a1
a2
a3
82
46
19
15
2a
49
6f
7e
81
8a
8e
95
92
80
75
77
79
79
79
78
72
79
98
a0
98
95
a0
a7
7e
4e
22
21
3f
68
7f
7d
81
85
84
91
83
79
76
78
7a
79
79
79
70
76
8d
95
90
98
a2
a8
83
4e
34
3d
5b
72
7b
77
7d
7b
83
88
7c
74
77
79
79
79
79
79
71
74
87
94
92
94
9f
ad
9f
7d
63
62
6f
75
7b
75
75
7b
80
82
74
75
77
79
79
79
7a
79
72
75
88
92
91
8d
9a
ae
b3
a0
88
7e
7d
76
73
6c
6d
74
7b
77
71
76
77
79
79
79
79
78
73
72
82
8a
8d
84
8d
9f
aa
9e
89
81
7d
76
6d
69
64
6d
70
71
74
77
78
7a
79
79
79
79
75
6d
78
82
8c
92
92
97
a1
9f
a6
94
89
7e
76
68
64
64
6a
73
78
78
79
79
79
79
79
79
78
71
71
77
83
8a
95
9f
a7
a9
a6
9f
8d
77
6c
5b
5b
60
6c
73
77
78
79
79
79
79
79
79
79
77
74
72
6d
6d
70
75
78
83
82
7a
6a
64
62
61
64
68
6e
74
77
79
79
79
79
79
79
79
79
79
78
74
70
6b
64
5d
5d
5a
5b
5c
5d
63
64
69
6f
71
74
77
78
79
79
79
79
79
79
79
79
79
79
78
77
75
73
73
73
74
71
70
71
73
73
75
77
76
77
78
79
79
79
79
79
79
79
79
79
79
79
79
79
79
79
79
79
79
78
78
78
78
79
78
79
78
78
78
79
79
79
79
79
